#ifndef MODEL_DATA_H
#define MODEL_DATA_H

// Model data
const unsigned char fire_detection_model_tflite[] = {
    0x1c, 0x00, 0x00, 0x00, 0x54, 0x46, 0x4c, 0x33, 0x14, 0x00, 0x20, 0x00, 0x1c, 0x00, 0x18, 0x00, 0x14, 0x00, 0x10, 0x00, 0x0c, 0x00, 0x00, 0x00, 0x08, 0x00, 0x04, 0x00, 0x14, 0x00, 0x00, 0x00, 0x1c, 0x00, 0x00, 0x00, 0x98, 0x00, 0x00, 0x00, 0x18, 0x01, 0x00, 0x00, 0xa4, 0x06, 0x00, 0x00, 0xb4, 0x06, 0x00, 0x00, 0x94, 0x14, 0x00, 0x00, 0x03, 0x00, 0x00, 0x00, 0x01, 0x00, 0x00, 0x00, 0x10, 0x00, 0x00, 0x00, 0x00, 0x00, 0x0a, 0x00, 0x10, 0x00, 0x0c, 0x00, 0x08, 0x00, 0x04, 0x00, 0x0a, 0x00, 0x00, 0x00, 0x0c, 0x00, 0x00, 0x00, 0x1c, 0x00, 0x00, 0x00, 0x3c, 0x00, 0x00, 0x00, 0x0f, 0x00, 0x00, 0x00, 0x73, 0x65, 0x72, 0x76, 0x69, 0x6e, 0x67, 0x5f, 0x64, 0x65, 0x66, 0x61, 0x75, 0x6c, 0x74, 0x00, 0x01, 0x00, 0x00, 0x00, 0x04, 0x00, 0x00, 0x00, 0x68, 0xff, 0xff, 0xff, 0x0d, 0x00, 0x00, 0x00, 0x04, 0x00, 0x00, 0x00, 0x08, 0x00, 0x00, 0x00, 0x6f, 0x75, 0x74, 0x70, 0x75, 0x74, 0x5f, 0x30, 0x00, 0x00, 0x00, 0x00, 0x01, 0x00, 0x00, 0x00, 0x04, 0x00, 0x00, 0x00, 0x3e, 0xf9, 0xff, 0xff, 0x04, 0x00, 0x00, 0x00, 0x0c, 0x00, 0x00, 0x00, 0x6b, 0x65, 0x72, 0x61, 0x73, 0x5f, 0x74, 0x65, 0x6e, 0x73, 0x6f, 0x72, 0x00, 0x00, 0x00, 0x00, 0x03, 0x00, 0x00, 0x00, 0x5c, 0x00, 0x00, 0x00, 0x2c, 0x00, 0x00, 0x00, 0x04, 0x00, 0x00, 0x00, 0xb8, 0xff, 0xff, 0xff, 0x11, 0x00, 0x00, 0x00, 0x04, 0x00, 0x00, 0x00, 0x13, 0x00, 0x00, 0x00, 0x43, 0x4f, 0x4e, 0x56, 0x45, 0x52, 0x53, 0x49, 0x4f, 0x4e, 0x5f, 0x4d, 0x45, 0x54, 0x41, 0x44, 0x41, 0x54, 0x41, 0x00, 0xdc, 0xff, 0xff, 0xff, 0x10, 0x00, 0x00, 0x00, 0x04, 0x00, 0x00, 0x00, 0x13, 0x00, 0x00, 0x00, 0x6d, 0x69, 0x6e, 0x5f, 0x72, 0x75, 0x6e, 0x74, 0x69, 0x6d, 0x65, 0x5f, 0x76, 0x65, 0x72, 0x73, 0x69, 0x6f, 0x6e, 0x00, 0x08, 0x00, 0x0c, 0x00, 0x08, 0x00, 0x04, 0x00, 0x08, 0x00, 0x00, 0x00, 0x0f, 0x00, 0x00, 0x00, 0x04, 0x00, 0x00, 0x00, 0x13, 0x00, 0x00, 0x00, 0x6d, 0x69, 0x6e, 0x5f, 0x72, 0x75, 0x6e, 0x74, 0x69, 0x6d, 0x65, 0x5f, 0x76, 0x65, 0x72, 0x73, 0x69, 0x6f, 0x6e, 0x00, 0x12, 0x00, 0x00, 0x00, 0x88, 0x05, 0x00, 0x00, 0x80, 0x05, 0x00, 0x00, 0x64, 0x05, 0x00, 0x00, 0x3c, 0x05, 0x00, 0x00, 0x0c, 0x05, 0x00, 0x00, 0x7c, 0x04, 0x00, 0x00, 0x2c, 0x04, 0x00, 0x00, 0x1c, 0x02, 0x00, 0x00, 0x8c, 0x01, 0x00, 0x00, 0xdc, 0x00, 0x00, 0x00, 0xd4, 0x00, 0x00, 0x00, 0xcc, 0x00, 0x00, 0x00, 0xc4, 0x00, 0x00, 0x00, 0xbc, 0x00, 0x00, 0x00, 0xb4, 0x00, 0x00, 0x00, 0x94, 0x00, 0x00, 0x00, 0x74, 0x00, 0x00, 0x00, 0x04, 0x00, 0x00, 0x00, 0x2a, 0xfa, 0xff, 0xff, 0x04, 0x00, 0x00, 0x00, 0x60, 0x00, 0x00, 0x00, 0x0c, 0x00, 0x00, 0x00, 0x08, 0x00, 0x0e, 0x00, 0x08, 0x00, 0x04, 0x00, 0x08, 0x00, 0x00, 0x00, 0x10, 0x00, 0x00, 0x00, 0x28, 0x00, 0x00, 0x00, 0x00, 0x00, 0x06, 0x00, 0x08, 0x00, 0x04, 0x00, 0x06, 0x00, 0x00, 0x00, 0x04, 0x00, 0x00, 0x00, 0x01, 0x00, 0x00, 0x00, 0xeb, 0x03, 0x00, 0x00, 0x0c, 0x00, 0x18, 0x00, 0x14, 0x00, 0x10, 0x00, 0x0c, 0x00, 0x04, 0x00, 0x0c, 0x00, 0x00, 0x00, 0xbb, 0x79, 0xb8, 0x9c, 0xa0, 0x94, 0x5e, 0xb8, 0x02, 0x00, 0x00, 0x00, 0x02, 0x00, 0x00, 0x00, 0x04, 0x00, 0x00, 0x00, 0x06, 0x00, 0x00, 0x00, 0x32, 0x2e, 0x31, 0x39, 0x2e, 0x30, 0x00, 0x00, 0x96, 0xfa, 0xff, 0xff, 0x04, 0x00, 0x00, 0x00, 0x10, 0x00, 0x00, 0x00, 0x00, 0x00, 0x00, 0x00, 0x00, 0x00, 0x00, 0x00, 0x00, 0x00, 0x00, 0x00, 0x00, 0x00, 0x00, 0x00, 0xb2, 0xfa, 0xff, 0xff, 0x04, 0x00, 0x00, 0x00, 0x10, 0x00, 0x00, 0x00, 0x31, 0x2e, 0x31, 0x34, 0x2e, 0x30, 0x00, 0x00, 0x00, 0x00, 0x00, 0x00, 0x00, 0x00, 0x00, 0x00, 0x9c, 0xfa, 0xff, 0xff, 0xa0, 0xfa, 0xff, 0xff, 0xa4, 0xfa, 0xff, 0xff, 0xa8, 0xfa, 0xff, 0xff, 0xac, 0xfa, 0xff, 0xff, 0xe2, 0xfa, 0xff, 0xff, 0x04, 0x00, 0x00, 0x00, 0xa0, 0x00, 0x00, 0x00, 0x74, 0x81, 0x6e, 0x5c, 0xd7, 0x73, 0x81, 0x6d, 0x5c, 0xd9, 0xe4, 0xe7, 0xec, 0xef, 0x7f, 0xd4, 0x72, 0xcf, 0xd6, 0x81, 0x6f, 0x81, 0x69, 0x5a, 0xe9, 0xca, 0x0a, 0xd2, 0xd9, 0x7f, 0xd5, 0xfa, 0xdd, 0xe3, 0x7f, 0xe6, 0x5b, 0xe1, 0xe5, 0x81, 0xe1, 0x61, 0xdc, 0xe0, 0x81, 0xe4, 0xe7, 0xec, 0xef, 0x7f, 0x6d, 0x81, 0x6a, 0x59, 0xe6, 0xdb, 0x68, 0xd6, 0xdb, 0x81, 0xdf, 0xf0, 0xe6, 0xeb, 0x7f, 0xd7, 0xf8, 0xdf, 0xe5, 0x7f, 0xb4, 0x24, 0xbe, 0xc8, 0x7f, 0x72, 0x81, 0x6c, 0x5a, 0xdd, 0x00, 0x00, 0xe5, 0x00, 0x00, 0x90, 0x7f, 0x96, 0xa5, 0x1d, 0x8b, 0x58, 0x97, 0xa6, 0x7f, 0x00, 0x81, 0x12, 0x00, 0x00, 0x73, 0x81, 0x6e, 0x5c, 0xda, 0x76, 0x81, 0x70, 0x55, 0xd3, 0xdc, 0x66, 0xd8, 0xdc, 0x81, 0x72, 0x81, 0x6d, 0x5b, 0xda, 0x71, 0x81, 0x6c, 0x5b, 0xdd, 0xe4, 0xe7, 0xeb, 0xee, 0x7f, 0x22, 0x10, 0x1a, 0x16, 0x81, 0x11, 0x25, 0x0a, 0x08, 0x81, 0x9a, 0x44, 0xa5, 0xb3, 0x7f, 0xda, 0x69, 0xd5, 0xdb, 0x81, 0xd7, 0xfa, 0xdf, 0xe4, 0x7f, 0xe4, 0xe7, 0xec, 0xef, 0x7f, 0x8e, 0xfb, 0xff, 0xff, 0x04, 0x00, 0x00, 0x00, 0x80, 0x00, 0x00, 0x00, 0xa4, 0x35, 0x00, 0x00, 0x00, 0x36, 0x00, 0x00, 0x0a, 0x1a, 0x00, 0x00, 0x02, 0x2a, 0x00, 0x00, 0xa2, 0xa9, 0x00, 0x00, 0x41, 0x67, 0x00, 0x00, 0x2a, 0x56, 0x00, 0x00, 0x8d, 0x26, 0x00, 0x00, 0x59, 0x23, 0x00, 0x00, 0x0a, 0x1a, 0x00, 0x00, 0x53, 0x42, 0x00, 0x00, 0x3d, 0x27, 0x00, 0x00, 0x76, 0x2b, 0x00, 0x00, 0x94, 0x3f, 0x00, 0x00, 0x34, 0x6e, 0x00, 0x00, 0x9d, 0x35, 0x00, 0x00, 0x00, 0xc1, 0xcf, 0xc7, 0xc0, 0x83, 0x00, 0x00, 0x4b, 0xc6, 0x00, 0x00, 0x34, 0xa6, 0xa9, 0xff, 0x1e, 0x36, 0x00, 0x00, 0xc4, 0x2e, 0x00, 0x00, 0x3c, 0x20, 0x00, 0x00, 0xff, 0x35, 0x00, 0x00, 0x7c, 0x36, 0x00, 0x00, 0x0b, 0x1a, 0x00, 0x00, 0x1a, 0x5d, 0x00, 0x00, 0xf9, 0x43, 0x00, 0x00, 0x82, 0x7c, 0x00, 0x00, 0x99, 0x26, 0x00, 0x00, 0x3f, 0x33, 0x00, 0x00, 0x18, 0x1a, 0x00, 0x00, 0x1a, 0xfc, 0xff, 0xff, 0x04, 0x00, 0x00, 0x00, 0x00, 0x02, 0x00, 0x00, 0xc0, 0xc1, 0xe7, 0x56, 0xf3, 0xfa, 0xfd, 0x5a, 0x77, 0xa4, 0xe1, 0x67, 0xc1, 0xe3, 0x02, 0xf5, 0x00, 0x1e, 0x0d, 0x00, 0xca, 0xaf, 0x7f, 0xd8, 0xbd, 0xee, 0x25, 0x39, 0x0c, 0x6c, 0xdd, 0xb0, 0x58, 0x55, 0x22, 0xaf, 0x1e, 0x15, 0x08, 0xab, 0x8e, 0x7f, 0x2b, 0x9e, 0x66, 0x38, 0x24, 0x0f, 0x00, 0xf2, 0x09, 0x00, 0x49, 0x6d, 0x85, 0x35, 0x5c, 0x19, 0xed, 0xd7, 0x0e, 0x9a, 0x41, 0x6e, 0x68, 0x64, 0x15, 0xb4, 0x21, 0x07, 0x03, 0xb6, 0x9b, 0x4c, 0x33, 0xa7, 0x35, 0x1a, 0x01, 0x11, 0x00, 0xe5, 0xf8, 0x00, 0x56, 0x7f, 0x92, 0x3f, 0x6b, 0x0f, 0xf9, 0xe5, 0xf4, 0xa3, 0x1d, 0x42, 0x3a, 0x37, 0xde, 0x28, 0x17, 0xe7, 0xf8, 0x35, 0x41, 0x81, 0x1f, 0x34, 0x91, 0xc2, 0xc7, 0x0a, 0x00, 0xf2, 0xe9, 0x00, 0x30, 0x43, 0x43, 0x23, 0x3c, 0xe7, 0x3b, 0x47, 0xd5, 0x35, 0xb2, 0x92, 0xcd, 0xcf, 0x22, 0xed, 0xf4, 0x21, 0x0b, 0xe1, 0xda, 0x7f, 0xe7, 0xe4, 0x77, 0x48, 0x4e, 0xf9, 0x00, 0x1c, 0x27, 0x00, 0xd6, 0xc5, 0xdb, 0xe1, 0xcc, 0x19, 0xda, 0xd3, 0x3c, 0xe3, 0x57, 0x6e, 0xaa, 0xac, 0x22, 0x07, 0xec, 0x28, 0x0d, 0xf8, 0xfa, 0x7f, 0xd6, 0x02, 0x7f, 0x51, 0x63, 0xf2, 0x00, 0x2e, 0x36, 0x00, 0xb8, 0x9a, 0xfe, 0xcb, 0xa7, 0x19, 0xdd, 0xda, 0x50, 0x02, 0x61, 0x6e, 0xbd, 0xbf, 0xe7, 0x56, 0xf3, 0xfa, 0xfd, 0x5a, 0x77, 0xa2, 0xe1, 0x68, 0xc1, 0xe3, 0x02, 0xf6, 0x00, 0x1e, 0x0d, 0x00, 0xc8, 0xac, 0x7f, 0xd7, 0xba, 0xee, 0x24, 0x38, 0x0c, 0x6c, 0xdc, 0xaf, 0x6a, 0x66, 0xf8, 0xda, 0x21, 0xef, 0xfc, 0xe3, 0xd6, 0xe1, 0x35, 0xd7, 0xd6, 0xe2, 0xce, 0x12, 0x00, 0xdc, 0xe1, 0x00, 0x58, 0x7f, 0xcf, 0x41, 0x6d, 0xfa, 0x16, 0x0e, 0xd1, 0xd4, 0xdb, 0xe5, 0xd3, 0xd5, 0x22, 0xf0, 0xf7, 0x22, 0x0b, 0xe3, 0xde, 0x7f, 0xeb, 0xe7, 0x78, 0x4a, 0x52, 0xf9, 0x00, 0x1e, 0x2a, 0x00, 0xdd, 0xcc, 0xdf, 0xe5, 0xd3, 0x19, 0xe0, 0xd8, 0x3f, 0xe7, 0x59, 0x6e, 0x69, 0x67, 0xf8, 0xdc, 0x22, 0xf1, 0xfc, 0xe7, 0xd9, 0xe2, 0x35, 0xda, 0xd8, 0xe5, 0xd1, 0x11, 0x00, 0xde, 0xe4, 0x00, 0x58, 0x7f, 0xd2, 0x41, 0x6d, 0xfa, 0x1a, 0x12, 0xd4, 0xd8, 0xdc, 0xe6, 0xc7, 0xc9, 0x22, 0xf3, 0xf2, 0x23, 0x0b, 0xe6, 0xe0, 0x7f, 0xe4, 0xeb, 0x79, 0x4a, 0x52, 0xf6, 0x00, 0x20, 0x2a, 0x00, 0xd1, 0xbd, 0xe3, 0xdd, 0xc5, 0x19, 0xdc, 0xd5, 0x40, 0xea, 0x5a, 0x6e, 0xcf, 0xcf, 0xe5, 0x55, 0xf9, 0xf9, 0xfc, 0x5b, 0x77, 0x9d, 0xe9, 0x67, 0xbb, 0xe0, 0xfe, 0xf7, 0x00, 0x1b, 0x0c, 0x00, 0xd6, 0xc1, 0x7f, 0xe0, 0xcd, 0xec, 0x2c, 0x40, 0x09, 0x6b, 0xd8, 0xaa, 0x6a, 0x68, 0xf4, 0xde, 0x20, 0xed, 0xfa, 0xe9, 0xdd, 0xd3, 0x35, 0xdd, 0xca, 0xdc, 0xc8, 0x11, 0x00, 0xdb, 0xdf, 0x00, 0x59, 0x7f, 0xd6, 0x42, 0x6e, 0xf7, 0x1b, 0x14, 0xcd, 0xdb, 0xd2, 0xd9, 0x32, 0x30, 0xde, 0x4e, 0x22, 0xf7, 0xfb, 0x5e, 0x76, 0x81, 0x1d, 0x63, 0xa3, 0xd5, 0xef, 0x08, 0x00, 0x11, 0x08, 0x00, 0x29, 0x34, 0x78, 0x1f, 0x34, 0xe7, 0x5a, 0x6a, 0xf7, 0x67, 0xc4, 0x92, 0x6a, 0x67, 0xf7, 0xd9, 0x20, 0xef, 0xfb, 0xe3, 0xd4, 0xdf, 0x35, 0xd5, 0xd4, 0xe1, 0xcc, 0x12, 0x00, 0xda, 0xe0, 0x00, 0x58, 0x7f, 0xcd, 0x42, 0x6e, 0xfa, 0x17, 0x0e, 0xcf, 0xd3, 0xd9, 0xe4, 0xc2, 0xc3, 0xe8, 0x55, 0xf4, 0xfb, 0xfd, 0x58, 0x76, 0xa8, 0xe2, 0x66, 0xc5, 0xe6, 0x04, 0xf6, 0x00, 0x1e, 0x0f, 0x00, 0xcc, 0xb1, 0x7f, 0xd9, 0xc0, 0xef, 0x25, 0x3a, 0x0e, 0x6b, 0xdf, 0xb4, 0x26, 0xfe, 0xff, 0xff, 0x04, 0x00, 0x00, 0x00, 0x40, 0x00, 0x00, 0x00, 0xc1, 0x6d, 0x00, 0x00, 0x4e, 0xa9, 0x00, 0x00, 0x66, 0xba, 0x00, 0x00, 0xa1, 0xf3, 0x00, 0x00, 0x5b, 0xc0, 0x00, 0x00, 0x8e, 0x2a, 0x01, 0x00, 0xcc, 0x8f, 0x00, 0x00, 0x84, 0x8b, 0x00, 0x00, 0x33, 0x68, 0x00, 0x00, 0xc2, 0x7a, 0x00, 0x00, 0x31, 0xca, 0x00, 0x00, 0x24, 0xe8, 0x00, 0x00, 0x34, 0xc3, 0x00, 0x00, 0x84, 0x88, 0x06, 0x00, 0xae, 0x97, 0x00, 0x00, 0xcc, 0x5b, 0x00, 0x00, 0x72, 0xfe, 0xff, 0xff, 0x04, 0x00, 0x00, 0x00, 0x80, 0x00, 0x00, 0x00, 0x6d, 0xd9, 0xca, 0xe8, 0x72, 0x78, 0x2f, 0xc0, 0x7f, 0x90, 0x4f, 0x4d, 0xab, 0x32, 0xa8, 0x6b, 0x0a, 0x0e, 0x2a, 0x78, 0x92, 0xa8, 0x04, 0x48, 0x82, 0x7f, 0xb8, 0x1b, 0x71, 0x44, 0x66, 0x09, 0x00, 0x00, 0x00, 0x00, 0x00, 0x00, 0x00, 0x00, 0x00, 0x00, 0x00, 0x00, 0x00, 0x00, 0x00, 0x00, 0x9e, 0x7f, 0x5d, 0x06, 0x20, 0x06, 0xd7, 0x30, 0x1f, 0x56, 0x10, 0xd8, 0x42, 0x1a, 0x44, 0xa1, 0x7f, 0xaf, 0xd5, 0x64, 0xb8, 0xe0, 0x36, 0x08, 0xa9, 0x0c, 0xd5, 0x5b, 0x1d, 0x4e, 0x0d, 0x7b, 0x70, 0xb9, 0xe7, 0x7f, 0x95, 0xc0, 0x2e, 0x1f, 0x82, 0x34, 0xbe, 0x59, 0x3f, 0x54, 0x2d, 0x6e, 0x7f, 0x9f, 0xb8, 0x29, 0xed, 0x0d, 0x36, 0xdf, 0xea, 0xc5, 0xf9, 0x53, 0xdb, 0x22, 0xd3, 0x7e, 0xeb, 0x2f, 0x0d, 0xc6, 0x67, 0x53, 0xf8, 0xe6, 0x7f, 0xd3, 0x41, 0xf1, 0xd6, 0x02, 0xdc, 0xeb, 0xfe, 0xfe, 0xff, 0xff, 0x04, 0x00, 0x00, 0x00, 0x20, 0x00, 0x00, 0x00, 0xc3, 0x5d, 0x00, 0x00, 0x76, 0xaf, 0x00, 0x00, 0x00, 0x86, 0x53, 0xe4, 0x6b, 0x53, 0x00, 0x00, 0x85, 0x73, 0x00, 0x00, 0x93, 0xb6, 0x00, 0x00, 0xc1, 0x37, 0x00, 0x00, 0x34, 0x5d, 0x00, 0x00, 0x2a, 0xff, 0xff, 0xff, 0x04, 0x00, 0x00, 0x00, 0x18, 0x00, 0x00, 0x00, 0x48, 0x85, 0x01, 0x2f, 0x81, 0xc1, 0xb2, 0x3c, 0x59, 0xf0, 0x20, 0x81, 0x51, 0x58, 0x6c, 0xb6, 0x90, 0x54, 0xfb, 0x5a, 0x0e, 0x4d, 0x8f, 0x81, 0x4e, 0xff, 0xff, 0xff, 0x04, 0x00, 0x00, 0x00, 0x0c, 0x00, 0x00, 0x00, 0xb1, 0x07, 0x00, 0x00, 0xac, 0xf8, 0xff, 0xff, 0xc6, 0xff, 0xff, 0xff, 0x34, 0xff, 0xff, 0xff, 0x38, 0xff, 0xff, 0xff, 0x0f, 0x00, 0x00, 0x00, 0x4d, 0x4c, 0x49, 0x52, 0x20, 0x43, 0x6f, 0x6e, 0x76, 0x65, 0x72, 0x74, 0x65, 0x64, 0x2e, 0x00, 0x01, 0x00, 0x00, 0x00, 0x14, 0x00, 0x00, 0x00, 0x00, 0x00, 0x0e, 0x00, 0x18, 0x00, 0x14, 0x00, 0x10, 0x00, 0x0c, 0x00, 0x08, 0x00, 0x04, 0x00, 0x0e, 0x00, 0x00, 0x00, 0x14, 0x00, 0x00, 0x00, 0x1c, 0x00, 0x00, 0x00, 0x60, 0x01, 0x00, 0x00, 0x64, 0x01, 0x00, 0x00, 0x68, 0x01, 0x00, 0x00, 0x04, 0x00, 0x00, 0x00, 0x6d, 0x61, 0x69, 0x6e, 0x00, 0x00, 0x00, 0x00, 0x05, 0x00, 0x00, 0x00, 0x08, 0x01, 0x00, 0x00, 0xc0, 0x00, 0x00, 0x00, 0x88, 0x00, 0x00, 0x00, 0x50, 0x00, 0x00, 0x00, 0x14, 0x00, 0x00, 0x00, 0x00, 0x00, 0x0e, 0x00, 0x1a, 0x00, 0x14, 0x00, 0x10, 0x00, 0x0c, 0x00, 0x0b, 0x00, 0x04, 0x00, 0x0e, 0x00, 0x00, 0x00, 0x1c, 0x00, 0x00, 0x00, 0x00, 0x00, 0x00, 0x09, 0x1c, 0x00, 0x00, 0x00, 0x20, 0x00, 0x00, 0x00, 0x01, 0x00, 0x00, 0x00, 0x00, 0x00, 0x06, 0x00, 0x08, 0x00, 0x04, 0x00, 0x06, 0x00, 0x00, 0x00, 0x00, 0x00, 0x80, 0x3f, 0x01, 0x00, 0x00, 0x00, 0x0d, 0x00, 0x00, 0x00, 0x01, 0x00, 0x00, 0x00, 0x0c, 0x00, 0x00, 0x00, 0x62, 0xff, 0xff, 0xff, 0x14, 0x00, 0x00, 0x00, 0x00, 0x00, 0x00, 0x08, 0x10, 0x00, 0x00, 0x00, 0x14, 0x00, 0x00, 0x00, 0x04, 0x00, 0x04, 0x00, 0x04, 0x00, 0x00, 0x00, 0x01, 0x00, 0x00, 0x00, 0x0c, 0x00, 0x00, 0x00, 0x03, 0x00, 0x00, 0x00, 0x0b, 0x00, 0x00, 0x00, 0x02, 0x00, 0x00, 0x00, 0x01, 0x00, 0x00, 0x00, 0x96, 0xff, 0xff, 0xff, 0x10, 0x00, 0x00, 0x00, 0x00, 0x00, 0x00, 0x08, 0x10, 0x00, 0x00, 0x00, 0x14, 0x00, 0x00, 0x00, 0x86, 0xff, 0xff, 0xff, 0x00, 0x00, 0x00, 0x01, 0x01, 0x00, 0x00, 0x00, 0x0b, 0x00, 0x00, 0x00, 0x03, 0x00, 0x00, 0x00, 0x0a, 0x00, 0x00, 0x00, 0x04, 0x00, 0x00, 0x00, 0x03, 0x00, 0x00, 0x00, 0xca, 0xff, 0xff, 0xff, 0x10, 0x00, 0x00, 0x00, 0x00, 0x00, 0x00, 0x08, 0x10, 0x00, 0x00, 0x00, 0x14, 0x00, 0x00, 0x00, 0xba, 0xff, 0xff, 0xff, 0x00, 0x00, 0x00, 0x01, 0x01, 0x00, 0x00, 0x00, 0x0a, 0x00, 0x00, 0x00, 0x03, 0x00, 0x00, 0x00, 0x09, 0x00, 0x00, 0x00, 0x06, 0x00, 0x00, 0x00, 0x05, 0x00, 0x00, 0x00, 0x00, 0x00, 0x0e, 0x00, 0x16, 0x00, 0x00, 0x00, 0x10, 0x00, 0x0c, 0x00, 0x0b, 0x00, 0x04, 0x00, 0x0e, 0x00, 0x00, 0x00, 0x18, 0x00, 0x00, 0x00, 0x00, 0x00, 0x00, 0x08, 0x18, 0x00, 0x00, 0x00, 0x1c, 0x00, 0x00, 0x00, 0x00, 0x00, 0x06, 0x00, 0x08, 0x00, 0x07, 0x00, 0x06, 0x00, 0x00, 0x00, 0x00, 0x00, 0x00, 0x01, 0x01, 0x00, 0x00, 0x00, 0x09, 0x00, 0x00, 0x00, 0x03, 0x00, 0x00, 0x00, 0x00, 0x00, 0x00, 0x00, 0x08, 0x00, 0x00, 0x00, 0x07, 0x00, 0x00, 0x00, 0x01, 0x00, 0x00, 0x00, 0x0d, 0x00, 0x00, 0x00, 0x01, 0x00, 0x00, 0x00, 0x00, 0x00, 0x00, 0x00, 0x0e, 0x00, 0x00, 0x00, 0xc4, 0x0b, 0x00, 0x00, 0x34, 0x0b, 0x00, 0x00, 0xa0, 0x0a, 0x00, 0x00, 0xec, 0x09, 0x00, 0x00, 0x30, 0x09, 0x00, 0x00, 0x1c, 0x08, 0x00, 0x00, 0x00, 0x07, 0x00, 0x00, 0x2c, 0x05, 0x00, 0x00, 0x50, 0x03, 0x00, 0x00, 0x9c, 0x02, 0x00, 0x00, 0xe0, 0x01, 0x00, 0x00, 0x24, 0x01, 0x00, 0x00, 0x80, 0x00, 0x00, 0x00, 0x04, 0x00, 0x00, 0x00, 0x8a, 0xf4, 0xff, 0xff, 0x00, 0x00, 0x00, 0x01, 0x18, 0x00, 0x00, 0x00, 0x20, 0x00, 0x00, 0x00, 0x3c, 0x00, 0x00, 0x00, 0x0e, 0x00, 0x00, 0x00, 0x00, 0x00, 0x00, 0x09, 0x50, 0x00, 0x00, 0x00, 0x02, 0x00, 0x00, 0x00, 0xff, 0xff, 0xff, 0xff, 0x03, 0x00, 0x00, 0x00, 0x74, 0xf4, 0xff, 0xff, 0x08, 0x00, 0x00, 0x00, 0x10, 0x00, 0x00, 0x00, 0x01, 0x00, 0x00, 0x00, 0x80, 0xff, 0xff, 0xff, 0xff, 0xff, 0xff, 0xff, 0x01, 0x00, 0x00, 0x00, 0x00, 0x00, 0x80, 0x3b, 0x1b, 0x00, 0x00, 0x00, 0x53, 0x74, 0x61, 0x74, 0x65, 0x66, 0x75, 0x6c, 0x50, 0x61, 0x72, 0x74, 0x69, 0x74, 0x69, 0x6f, 0x6e, 0x65, 0x64, 0x43, 0x61, 0x6c, 0x6c, 0x5f, 0x31, 0x3a, 0x30, 0x00, 0x02, 0x00, 0x00, 0x00, 0x01, 0x00, 0x00, 0x00, 0x03, 0x00, 0x00, 0x00, 0x02, 0xf5, 0xff, 0xff, 0x00, 0x00, 0x00, 0x01, 0x18, 0x00, 0x00, 0x00, 0x20, 0x00, 0x00, 0x00, 0x40, 0x00, 0x00, 0x00, 0x0d, 0x00, 0x00, 0x00, 0x00, 0x00, 0x00, 0x09, 0x78, 0x00, 0x00, 0x00, 0x02, 0x00, 0x00, 0x00, 0xff, 0xff, 0xff, 0xff, 0x03, 0x00, 0x00, 0x00, 0xec, 0xf4, 0xff, 0xff, 0x08, 0x00, 0x00, 0x00, 0x14, 0x00, 0x00, 0x00, 0x01, 0x00, 0x00, 0x00, 0xe6, 0xff, 0xff, 0xff, 0xff, 0xff, 0xff, 0xff, 0x00, 0x00, 0x00, 0x00, 0x01, 0x00, 0x00, 0x00, 0x8a, 0x09, 0x0d, 0x3d, 0x3c, 0x00, 0x00, 0x00, 0x73, 0x65, 0x71, 0x75, 0x65, 0x6e, 0x74, 0x69, 0x61, 0x6c, 0x5f, 0x31, 0x2f, 0x64, 0x65, 0x6e, 0x73, 0x65, 0x5f, 0x33, 0x5f, 0x31, 0x2f, 0x4d, 0x61, 0x74, 0x4d, 0x75, 0x6c, 0x3b, 0x73, 0x65, 0x71, 0x75, 0x65, 0x6e, 0x74, 0x69, 0x61, 0x6c, 0x5f, 0x31, 0x2f, 0x64, 0x65, 0x6e, 0x73, 0x65, 0x5f, 0x33, 0x5f, 0x31, 0x2f, 0x42, 0x69, 0x61, 0x73, 0x41, 0x64, 0x64, 0x00, 0x00, 0x00, 0x00, 0x02, 0x00, 0x00, 0x00, 0x01, 0x00, 0x00, 0x00, 0x03, 0x00, 0x00, 0x00, 0xa2, 0xf5, 0xff, 0xff, 0x00, 0x00, 0x00, 0x01, 0x18, 0x00, 0x00, 0x00, 0x20, 0x00, 0x00, 0x00, 0x3c, 0x00, 0x00, 0x00, 0x0c, 0x00, 0x00, 0x00, 0x00, 0x00, 0x00, 0x09, 0x90, 0x00, 0x00, 0x00, 0x02, 0x00, 0x00, 0x00, 0xff, 0xff, 0xff, 0xff, 0x08, 0x00, 0x00, 0x00, 0x8c, 0xf5, 0xff, 0xff, 0x08, 0x00, 0x00, 0x00, 0x10, 0x00, 0x00, 0x00, 0x01, 0x00, 0x00, 0x00, 0x80, 0xff, 0xff, 0xff, 0xff, 0xff, 0xff, 0xff, 0x01, 0x00, 0x00, 0x00, 0x37, 0xd3, 0x28, 0x3c, 0x58, 0x00, 0x00, 0x00, 0x73, 0x65, 0x71, 0x75, 0x65, 0x6e, 0x74, 0x69, 0x61, 0x6c, 0x5f, 0x31, 0x2f, 0x64, 0x65, 0x6e, 0x73, 0x65, 0x5f, 0x32, 0x5f, 0x31, 0x2f, 0x4d, 0x61, 0x74, 0x4d, 0x75, 0x6c, 0x3b, 0x73, 0x65, 0x71, 0x75, 0x65, 0x6e, 0x74, 0x69, 0x61, 0x6c, 0x5f, 0x31, 0x2f, 0x64, 0x65, 0x6e, 0x73, 0x65, 0x5f, 0x32, 0x5f, 0x31, 0x2f, 0x52, 0x65, 0x6c, 0x75, 0x3b, 0x73, 0x65, 0x71, 0x75, 0x65, 0x6e, 0x74, 0x69, 0x61, 0x6c, 0x5f, 0x31, 0x2f, 0x64, 0x65, 0x6e, 0x73, 0x65, 0x5f, 0x32, 0x5f, 0x31, 0x2f, 0x42, 0x69, 0x61, 0x73, 0x41, 0x64, 0x64, 0x00, 0x00, 0x00, 0x00, 0x02, 0x00, 0x00, 0x00, 0x01, 0x00, 0x00, 0x00, 0x08, 0x00, 0x00, 0x00, 0x5a, 0xf6, 0xff, 0xff, 0x00, 0x00, 0x00, 0x01, 0x18, 0x00, 0x00, 0x00, 0x20, 0x00, 0x00, 0x00, 0x3c, 0x00, 0x00, 0x00, 0x0b, 0x00, 0x00, 0x00, 0x00, 0x00, 0x00, 0x09, 0x90, 0x00, 0x00, 0x00, 0x02, 0x00, 0x00, 0x00, 0xff, 0xff, 0xff, 0xff, 0x10, 0x00, 0x00, 0x00, 0x44, 0xf6, 0xff, 0xff, 0x08, 0x00, 0x00, 0x00, 0x10, 0x00, 0x00, 0x00, 0x01, 0x00, 0x00, 0x00, 0x80, 0xff, 0xff, 0xff, 0xff, 0xff, 0xff, 0xff, 0x01, 0x00, 0x00, 0x00, 0xec, 0xda, 0xfe, 0x3b, 0x58, 0x00, 0x00, 0x00, 0x73, 0x65, 0x71, 0x75, 0x65, 0x6e, 0x74, 0x69, 0x61, 0x6c, 0x5f, 0x31, 0x2f, 0x64, 0x65, 0x6e, 0x73, 0x65, 0x5f, 0x31, 0x5f, 0x32, 0x2f, 0x4d, 0x61, 0x74, 0x4d, 0x75, 0x6c, 0x3b, 0x73, 0x65, 0x71, 0x75, 0x65, 0x6e, 0x74, 0x69, 0x61, 0x6c, 0x5f, 0x31, 0x2f, 0x64, 0x65, 0x6e, 0x73, 0x65, 0x5f, 0x31, 0x5f, 0x32, 0x2f, 0x52, 0x65, 0x6c, 0x75, 0x3b, 0x73, 0x65, 0x71, 0x75, 0x65, 0x6e, 0x74, 0x69, 0x61, 0x6c, 0x5f, 0x31, 0x2f, 0x64, 0x65, 0x6e, 0x73, 0x65, 0x5f, 0x31, 0x5f, 0x32, 0x2f, 0x42, 0x69, 0x61, 0x73, 0x41, 0x64, 0x64, 0x00, 0x00, 0x00, 0x00, 0x02, 0x00, 0x00, 0x00, 0x01, 0x00, 0x00, 0x00, 0x10, 0x00, 0x00, 0x00, 0x12, 0xf7, 0xff, 0xff, 0x00, 0x00, 0x00, 0x01, 0x18, 0x00, 0x00, 0x00, 0x20, 0x00, 0x00, 0x00, 0x3c, 0x00, 0x00, 0x00, 0x0a, 0x00, 0x00, 0x00, 0x00, 0x00, 0x00, 0x09, 0x88, 0x00, 0x00, 0x00, 0x02, 0x00, 0x00, 0x00, 0xff, 0xff, 0xff, 0xff, 0x20, 0x00, 0x00, 0x00, 0xfc, 0xf6, 0xff, 0xff, 0x08, 0x00, 0x00, 0x00, 0x10, 0x00, 0x00, 0x00, 0x01, 0x00, 0x00, 0x00, 0x80, 0xff, 0xff, 0xff, 0xff, 0xff, 0xff, 0xff, 0x01, 0x00, 0x00, 0x00, 0x1a, 0x4a, 0x0c, 0x3c, 0x52, 0x00, 0x00, 0x00, 0x73, 0x65, 0x71, 0x75, 0x65, 0x6e, 0x74, 0x69, 0x61, 0x6c, 0x5f, 0x31, 0x2f, 0x64, 0x65, 0x6e, 0x73, 0x65, 0x5f, 0x31, 0x2f, 0x4d, 0x61, 0x74, 0x4d, 0x75, 0x6c, 0x3b, 0x73, 0x65, 0x71, 0x75, 0x65, 0x6e, 0x74, 0x69, 0x61, 0x6c, 0x5f, 0x31, 0x2f, 0x64, 0x65, 0x6e, 0x73, 0x65, 0x5f, 0x31, 0x2f, 0x52, 0x65, 0x6c, 0x75, 0x3b, 0x73, 0x65, 0x71, 0x75, 0x65, 0x6e, 0x74, 0x69, 0x61, 0x6c, 0x5f, 0x31, 0x2f, 0x64, 0x65, 0x6e, 0x73, 0x65, 0x5f, 0x31, 0x2f, 0x42, 0x69, 0x61, 0x73, 0x41, 0x64, 0x64, 0x00, 0x00, 0x02, 0x00, 0x00, 0x00, 0x01, 0x00, 0x00, 0x00, 0x20, 0x00, 0x00, 0x00, 0x4e, 0xf8, 0xff, 0xff, 0x00, 0x00, 0x00, 0x01, 0x14, 0x00, 0x00, 0x00, 0xa8, 0x01, 0x00, 0x00, 0x09, 0x00, 0x00, 0x00, 0x00, 0x00, 0x00, 0x09, 0xb4, 0x01, 0x00, 0x00, 0x9c, 0xf7, 0xff, 0xff, 0x08, 0x00, 0x00, 0x00, 0x0c, 0x01, 0x00, 0x00, 0x20, 0x00, 0x00, 0x00, 0x00, 0x00, 0x00, 0x00, 0x00, 0x00, 0x00, 0x00, 0x00, 0x00, 0x00, 0x00, 0x00, 0x00, 0x00, 0x00, 0x00, 0x00, 0x00, 0x00, 0x00, 0x00, 0x00, 0x00, 0x00, 0x00, 0x00, 0x00, 0x00, 0x00, 0x00, 0x00, 0x00, 0x00, 0x00, 0x00, 0x00, 0x00, 0x00, 0x00, 0x00, 0x00, 0x00, 0x00, 0x00, 0x00, 0x00, 0x00, 0x00, 0x00, 0x00, 0x00, 0x00, 0x00, 0x00, 0x00, 0x00, 0x00, 0x00, 0x00, 0x00, 0x00, 0x00, 0x00, 0x00, 0x00, 0x00, 0x00, 0x00, 0x00, 0x00, 0x00, 0x00, 0x00, 0x00, 0x00, 0x00, 0x00, 0x00, 0x00, 0x00, 0x00, 0x00, 0x00, 0x00, 0x00, 0x00, 0x00, 0x00, 0x00, 0x00, 0x00, 0x00, 0x00, 0x00, 0x00, 0x00, 0x00, 0x00, 0x00, 0x00, 0x00, 0x00, 0x00, 0x00, 0x00, 0x00, 0x00, 0x00, 0x00, 0x00, 0x00, 0x00, 0x00, 0x00, 0x00, 0x00, 0x00, 0x00, 0x00, 0x00, 0x00, 0x00, 0x00, 0x00, 0x00, 0x00, 0x00, 0x00, 0x00, 0x00, 0x00, 0x00, 0x00, 0x00, 0x00, 0x00, 0x00, 0x00, 0x00, 0x00, 0x00, 0x00, 0x00, 0x00, 0x00, 0x00, 0x00, 0x00, 0x00, 0x00, 0x00, 0x00, 0x00, 0x00, 0x00, 0x00, 0x00, 0x00, 0x00, 0x00, 0x00, 0x00, 0x00, 0x00, 0x00, 0x00, 0x00, 0x00, 0x00, 0x00, 0x00, 0x00, 0x00, 0x00, 0x00, 0x00, 0x00, 0x00, 0x00, 0x00, 0x00, 0x00, 0x00, 0x00, 0x00, 0x00, 0x00, 0x00, 0x00, 0x00, 0x00, 0x00, 0x00, 0x00, 0x00, 0x00, 0x00, 0x00, 0x00, 0x00, 0x00, 0x00, 0x00, 0x00, 0x00, 0x00, 0x00, 0x00, 0x00, 0x00, 0x00, 0x00, 0x00, 0x00, 0x00, 0x00, 0x00, 0x00, 0x00, 0x00, 0x00, 0x00, 0x00, 0x00, 0x00, 0x00, 0x00, 0x00, 0x00, 0x00, 0x00, 0x00, 0x00, 0x00, 0x00, 0x00, 0x00, 0x00, 0x00, 0x00, 0x00, 0x00, 0x00, 0x00, 0x00, 0x00, 0x00, 0x00, 0x00, 0x00, 0x00, 0x00, 0x00, 0x00, 0x00, 0x00, 0x00, 0x00, 0x00, 0x20, 0x00, 0x00, 0x00, 0x29, 0x8a, 0xbe, 0x3a, 0x04, 0xa4, 0xba, 0x3a, 0x1e, 0x55, 0x5d, 0x3a, 0x55, 0x54, 0xa7, 0x3a, 0x6d, 0xce, 0xe1, 0x39, 0x7c, 0x83, 0x1c, 0x3a, 0x6f, 0x34, 0x57, 0x39, 0x02, 0x8d, 0xca, 0x3a, 0x2b, 0x58, 0x01, 0x3b, 0x05, 0xaa, 0x4c, 0x3b, 0x91, 0x24, 0x47, 0x3a, 0xd7, 0xcb, 0xd5, 0x3a, 0xda, 0x64, 0x2e, 0x3b, 0x4c, 0x45, 0xc4, 0x3a, 0x1c, 0xba, 0xa4, 0x3a, 0x19, 0x20, 0x86, 0x39, 0x4a, 0x46, 0x87, 0x31, 0x67, 0xea, 0x11, 0x3a, 0x7b, 0x36, 0xfe, 0x39, 0xd5, 0xc2, 0xb7, 0x33, 0xb6, 0xe8, 0x9f, 0x3a, 0x11, 0xc7, 0xe4, 0x3a, 0xe0, 0x9f, 0x05, 0x3b, 0xa0, 0xcf, 0x6f, 0x3a, 0xe8, 0xca, 0xc9, 0x3a, 0xdd, 0xd8, 0x20, 0x3a, 0x8c, 0x03, 0x89, 0x3a, 0x29, 0x23, 0xb8, 0x3a, 0x1e, 0x58, 0x5e, 0x3a, 0x37, 0x50, 0xdd, 0x3a, 0x83, 0xc4, 0xf1, 0x3a, 0x9b, 0x95, 0x31, 0x3b, 0x12, 0x00, 0x00, 0x00, 0x74, 0x66, 0x6c, 0x2e, 0x70, 0x73, 0x65, 0x75, 0x64, 0x6f, 0x5f, 0x71, 0x63, 0x6f, 0x6e, 0x73, 0x74, 0x37, 0x00, 0x00, 0x02, 0x00, 0x00, 0x00, 0x20, 0x00, 0x00, 0x00, 0x05, 0x00, 0x00, 0x00, 0x26, 0xfa, 0xff, 0xff, 0x00, 0x00, 0x00, 0x01, 0x14, 0x00, 0x00, 0x00, 0xa4, 0x01, 0x00, 0x00, 0x08, 0x00, 0x00, 0x00, 0x00, 0x00, 0x00, 0x02, 0xb0, 0x01, 0x00, 0x00, 0x74, 0xf9, 0xff, 0xff, 0x08, 0x00, 0x00, 0x00, 0x08, 0x01, 0x00, 0x00, 0x20, 0x00, 0x00, 0x00, 0x00, 0x00, 0x00, 0x00, 0x00, 0x00, 0x00, 0x00, 0x00, 0x00, 0x00, 0x00, 0x00, 0x00, 0x00, 0x00, 0x00, 0x00, 0x00, 0x00, 0x00, 0x00, 0x00, 0x00, 0x00, 0x00, 0x00, 0x00, 0x00, 0x00, 0x00, 0x00, 0x00, 0x00, 0x00, 0x00, 0x00, 0x00, 0x00, 0x00, 0x00, 0x00, 0x00, 0x00, 0x00, 0x00, 0x00, 0x00, 0x00, 0x00, 0x00, 0x00, 0x00, 0x00, 0x00, 0x00, 0x00, 0x00, 0x00, 0x00, 0x00, 0x00, 0x00, 0x00, 0x00, 0x00, 0x00, 0x00, 0x00, 0x00, 0x00, 0x00, 0x00, 0x00, 0x00, 0x00, 0x00, 0x00, 0x00, 0x00, 0x00, 0x00, 0x00, 0x00, 0x00, 0x00, 0x00, 0x00, 0x00, 0x00, 0x00, 0x00, 0x00, 0x00, 0x00, 0x00, 0x00, 0x00, 0x00, 0x00, 0x00, 0x00, 0x00, 0x00, 0x00, 0x00, 0x00, 0x00, 0x00, 0x00, 0x00, 0x00, 0x00, 0x00, 0x00, 0x00, 0x00, 0x00, 0x00, 0x00, 0x00, 0x00, 0x00, 0x00, 0x00, 0x00, 0x00, 0x00, 0x00, 0x00, 0x00, 0x00, 0x00, 0x00, 0x00, 0x00, 0x00, 0x00, 0x00, 0x00, 0x00, 0x00, 0x00, 0x00, 0x00, 0x00, 0x00, 0x00, 0x00, 0x00, 0x00, 0x00, 0x00, 0x00, 0x00, 0x00, 0x00, 0x00, 0x00, 0x00, 0x00, 0x00, 0x00, 0x00, 0x00, 0x00, 0x00, 0x00, 0x00, 0x00, 0x00, 0x00, 0x00, 0x00, 0x00, 0x00, 0x00, 0x00, 0x00, 0x00, 0x00, 0x00, 0x00, 0x00, 0x00, 0x00, 0x00, 0x00, 0x00, 0x00, 0x00, 0x00, 0x00, 0x00, 0x00, 0x00, 0x00, 0x00, 0x00, 0x00, 0x00, 0x00, 0x00, 0x00, 0x00, 0x00, 0x00, 0x00, 0x00, 0x00, 0x00, 0x00, 0x00, 0x00, 0x00, 0x00, 0x00, 0x00, 0x00, 0x00, 0x00, 0x00, 0x00, 0x00, 0x00, 0x00, 0x00, 0x00, 0x00, 0x00, 0x00, 0x00, 0x00, 0x00, 0x00, 0x00, 0x00, 0x00, 0x00, 0x00, 0x00, 0x00, 0x00, 0x00, 0x00, 0x00, 0x00, 0x00, 0x00, 0x00, 0x00, 0x00, 0x00, 0x00, 0x00, 0x00, 0x20, 0x00, 0x00, 0x00, 0xdd, 0x35, 0xe6, 0x37, 0xe8, 0x7f, 0xe1, 0x37, 0x09, 0xb5, 0x85, 0x37, 0xf0, 0x2a, 0xca, 0x37, 0xeb, 0x68, 0x08, 0x37, 0x9c, 0x19, 0x3d, 0x37, 0x64, 0x01, 0x82, 0x36, 0xe7, 0xb8, 0xf4, 0x37, 0x2f, 0x46, 0x1c, 0x38, 0x8e, 0x46, 0x77, 0x38, 0xd1, 0x9a, 0x70, 0x37, 0x8e, 0x27, 0x01, 0x38, 0xfe, 0xb3, 0x52, 0x38, 0x76, 0x22, 0xed, 0x37, 0x01, 0x06, 0xc7, 0x37, 0xf0, 0x0c, 0xa2, 0x36, 0x61, 0x70, 0xa3, 0x2e, 0xa9, 0x4b, 0x30, 0x37, 0xf9, 0x91, 0x19, 0x37, 0x3d, 0x05, 0xde, 0x30, 0xd0, 0x33, 0xc1, 0x37, 0x6c, 0x34, 0x0a, 0x38, 0x05, 0x72, 0x21, 0x38, 0xbd, 0xde, 0x90, 0x37, 0x63, 0xce, 0xf3, 0x37, 0xf7, 0x55, 0x42, 0x37, 0x58, 0x8a, 0xa5, 0x37, 0x9f, 0x79, 0xde, 0x37, 0x7f, 0x51, 0x86, 0x37, 0x13, 0xb2, 0x05, 0x38, 0x53, 0x0d, 0x12, 0x38, 0xcc, 0x8e, 0x56, 0x38, 0x12, 0x00, 0x00, 0x00, 0x74, 0x66, 0x6c, 0x2e, 0x70, 0x73, 0x65, 0x75, 0x64, 0x6f, 0x5f, 0x71, 0x63, 0x6f, 0x6e, 0x73, 0x74, 0x36, 0x00, 0x00, 0x01, 0x00, 0x00, 0x00, 0x20, 0x00, 0x00, 0x00, 0xf6, 0xfb, 0xff, 0xff, 0x00, 0x00, 0x00, 0x01, 0x14, 0x00, 0x00, 0x00, 0xe8, 0x00, 0x00, 0x00, 0x07, 0x00, 0x00, 0x00, 0x00, 0x00, 0x00, 0x09, 0xf4, 0x00, 0x00, 0x00, 0x44, 0xfb, 0xff, 0xff, 0x08, 0x00, 0x00, 0x00, 0x8c, 0x00, 0x00, 0x00, 0x10, 0x00, 0x00, 0x00, 0x00, 0x00, 0x00, 0x00, 0x00, 0x00, 0x00, 0x00, 0x00, 0x00, 0x00, 0x00, 0x00, 0x00, 0x00, 0x00, 0x00, 0x00, 0x00, 0x00, 0x00, 0x00, 0x00, 0x00, 0x00, 0x00, 0x00, 0x00, 0x00, 0x00, 0x00, 0x00, 0x00, 0x00, 0x00, 0x00, 0x00, 0x00, 0x00, 0x00, 0x00, 0x00, 0x00, 0x00, 0x00, 0x00, 0x00, 0x00, 0x00, 0x00, 0x00, 0x00, 0x00, 0x00, 0x00, 0x00, 0x00, 0x00, 0x00, 0x00, 0x00, 0x00, 0x00, 0x00, 0x00, 0x00, 0x00, 0x00, 0x00, 0x00, 0x00, 0x00, 0x00, 0x00, 0x00, 0x00, 0x00, 0x00, 0x00, 0x00, 0x00, 0x00, 0x00, 0x00, 0x00, 0x00, 0x00, 0x00, 0x00, 0x00, 0x00, 0x00, 0x00, 0x00, 0x00, 0x00, 0x00, 0x00, 0x00, 0x00, 0x00, 0x00, 0x00, 0x00, 0x00, 0x00, 0x00, 0x00, 0x00, 0x00, 0x00, 0x00, 0x00, 0x00, 0x00, 0x00, 0x00, 0x00, 0x00, 0x00, 0x00, 0x00, 0x00, 0x00, 0x00, 0x00, 0x00, 0x00, 0x00, 0x00, 0x00, 0x00, 0x10, 0x00, 0x00, 0x00, 0xbc, 0x0a, 0xb9, 0x3a, 0xfd, 0x96, 0x8e, 0x3a, 0xb8, 0xed, 0x68, 0x3a, 0xec, 0x56, 0x7c, 0x3a, 0x7b, 0x50, 0xab, 0x3a, 0x05, 0xc8, 0x63, 0x3a, 0x7a, 0x56, 0x19, 0x3a, 0x21, 0x92, 0x46, 0x3a, 0x02, 0xc2, 0xc9, 0x3a, 0x0b, 0x7c, 0xb0, 0x3a, 0xe3, 0x81, 0x54, 0x3a, 0x90, 0xfa, 0x63, 0x3a, 0xfa, 0x02, 0x8b, 0x3a, 0xd3, 0xe6, 0xb1, 0x39, 0xcb, 0x2c, 0x89, 0x3a, 0x8f, 0xbe, 0xb8, 0x3a, 0x12, 0x00, 0x00, 0x00, 0x74, 0x66, 0x6c, 0x2e, 0x70, 0x73, 0x65, 0x75, 0x64, 0x6f, 0x5f, 0x71, 0x63, 0x6f, 0x6e, 0x73, 0x74, 0x35, 0x00, 0x00, 0x02, 0x00, 0x00, 0x00, 0x10, 0x00, 0x00, 0x00, 0x20, 0x00, 0x00, 0x00, 0x0e, 0xfd, 0xff, 0xff, 0x00, 0x00, 0x00, 0x01, 0x14, 0x00, 0x00, 0x00, 0xe4, 0x00, 0x00, 0x00, 0x06, 0x00, 0x00, 0x00, 0x00, 0x00, 0x00, 0x02, 0xf0, 0x00, 0x00, 0x00, 0x5c, 0xfc, 0xff, 0xff, 0x08, 0x00, 0x00, 0x00, 0x88, 0x00, 0x00, 0x00, 0x10, 0x00, 0x00, 0x00, 0x00, 0x00, 0x00, 0x00, 0x00, 0x00, 0x00, 0x00, 0x00, 0x00, 0x00, 0x00, 0x00, 0x00, 0x00, 0x00, 0x00, 0x00, 0x00, 0x00, 0x00, 0x00, 0x00, 0x00, 0x00, 0x00, 0x00, 0x00, 0x00, 0x00, 0x00, 0x00, 0x00, 0x00, 0x00, 0x00, 0x00, 0x00, 0x00, 0x00, 0x00, 0x00, 0x00, 0x00, 0x00, 0x00, 0x00, 0x00, 0x00, 0x00, 0x00, 0x00, 0x00, 0x00, 0x00, 0x00, 0x00, 0x00, 0x00, 0x00, 0x00, 0x00, 0x00, 0x00, 0x00, 0x00, 0x00, 0x00, 0x00, 0x00, 0x00, 0x00, 0x00, 0x00, 0x00, 0x00, 0x00, 0x00, 0x00, 0x00, 0x00, 0x00, 0x00, 0x00, 0x00, 0x00, 0x00, 0x00, 0x00, 0x00, 0x00, 0x00, 0x00, 0x00, 0x00, 0x00, 0x00, 0x00, 0x00, 0x00, 0x00, 0x00, 0x00, 0x00, 0x00, 0x00, 0x00, 0x00, 0x00, 0x00, 0x00, 0x00, 0x00, 0x00, 0x00, 0x00, 0x00, 0x00, 0x00, 0x00, 0x00, 0x00, 0x00, 0x00, 0x00, 0x00, 0x00, 0x00, 0x10, 0x00, 0x00, 0x00, 0xdd, 0xce, 0x4a, 0x37, 0xb1, 0x47, 0x1c, 0x37, 0xda, 0x4a, 0xff, 0x36, 0x94, 0x48, 0x0a, 0x37, 0x34, 0xc3, 0x3b, 0x37, 0xa3, 0xa6, 0xf9, 0x36, 0x5b, 0x0f, 0xa8, 0x36, 0xc9, 0xa2, 0xd9, 0x36, 0xff, 0x20, 0x5d, 0x37, 0xd8, 0x6d, 0x41, 0x37, 0x17, 0xe9, 0xe8, 0x36, 0x09, 0xde, 0xf9, 0x36, 0xbb, 0x5b, 0x18, 0x37, 0x74, 0xfb, 0x42, 0x36, 0x68, 0x58, 0x16, 0x37, 0x60, 0x7b, 0x4a, 0x37, 0x12, 0x00, 0x00, 0x00, 0x74, 0x66, 0x6c, 0x2e, 0x70, 0x73, 0x65, 0x75, 0x64, 0x6f, 0x5f, 0x71, 0x63, 0x6f, 0x6e, 0x73, 0x74, 0x34, 0x00, 0x00, 0x01, 0x00, 0x00, 0x00, 0x10, 0x00, 0x00, 0x00, 0x1e, 0xfe, 0xff, 0xff, 0x00, 0x00, 0x00, 0x01, 0x14, 0x00, 0x00, 0x00, 0x88, 0x00, 0x00, 0x00, 0x05, 0x00, 0x00, 0x00, 0x00, 0x00, 0x00, 0x09, 0x94, 0x00, 0x00, 0x00, 0x6c, 0xfd, 0xff, 0xff, 0x08, 0x00, 0x00, 0x00, 0x4c, 0x00, 0x00, 0x00, 0x08, 0x00, 0x00, 0x00, 0x00, 0x00, 0x00, 0x00, 0x00, 0x00, 0x00, 0x00, 0x00, 0x00, 0x00, 0x00, 0x00, 0x00, 0x00, 0x00, 0x00, 0x00, 0x00, 0x00, 0x00, 0x00, 0x00, 0x00, 0x00, 0x00, 0x00, 0x00, 0x00, 0x00, 0x00, 0x00, 0x00, 0x00, 0x00, 0x00, 0x00, 0x00, 0x00, 0x00, 0x00, 0x00, 0x00, 0x00, 0x00, 0x00, 0x00, 0x00, 0x00, 0x00, 0x00, 0x00, 0x00, 0x00, 0x00, 0x00, 0x00, 0x00, 0x00, 0x00, 0x00, 0x00, 0x00, 0x00, 0x00, 0x00, 0x00, 0x00, 0x08, 0x00, 0x00, 0x00, 0x7e, 0x3e, 0xcd, 0x3a, 0xce, 0x9b, 0xcd, 0x3a, 0x4a, 0x46, 0x87, 0x31, 0x43, 0x11, 0x31, 0x3b, 0xa2, 0x63, 0xca, 0x3a, 0x16, 0x8a, 0x8d, 0x3a, 0x62, 0x1d, 0x1c, 0x3b, 0x2d, 0x71, 0x30, 0x3b, 0x12, 0x00, 0x00, 0x00, 0x74, 0x66, 0x6c, 0x2e, 0x70, 0x73, 0x65, 0x75, 0x64, 0x6f, 0x5f, 0x71, 0x63, 0x6f, 0x6e, 0x73, 0x74, 0x33, 0x00, 0x00, 0x02, 0x00, 0x00, 0x00, 0x08, 0x00, 0x00, 0x00, 0x10, 0x00, 0x00, 0x00, 0xd6, 0xfe, 0xff, 0xff, 0x00, 0x00, 0x00, 0x01, 0x14, 0x00, 0x00, 0x00, 0x84, 0x00, 0x00, 0x00, 0x04, 0x00, 0x00, 0x00, 0x00, 0x00, 0x00, 0x02, 0x90, 0x00, 0x00, 0x00, 0x24, 0xfe, 0xff, 0xff, 0x08, 0x00, 0x00, 0x00, 0x48, 0x00, 0x00, 0x00, 0x08, 0x00, 0x00, 0x00, 0x00, 0x00, 0x00, 0x00, 0x00, 0x00, 0x00, 0x00, 0x00, 0x00, 0x00, 0x00, 0x00, 0x00, 0x00, 0x00, 0x00, 0x00, 0x00, 0x00, 0x00, 0x00, 0x00, 0x00, 0x00, 0x00, 0x00, 0x00, 0x00, 0x00, 0x00, 0x00, 0x00, 0x00, 0x00, 0x00, 0x00, 0x00, 0x00, 0x00, 0x00, 0x00, 0x00, 0x00, 0x00, 0x00, 0x00, 0x00, 0x00, 0x00, 0x00, 0x00, 0x00, 0x00, 0x00, 0x00, 0x00, 0x00, 0x00, 0x00, 0x00, 0x00, 0x00, 0x00, 0x08, 0x00, 0x00, 0x00, 0x85, 0x53, 0x4c, 0x37, 0x6b, 0xb0, 0x4c, 0x37, 0x6c, 0xab, 0x06, 0x2e, 0x8c, 0x46, 0xb0, 0x37, 0xee, 0x7b, 0x49, 0x37, 0x0c, 0xe8, 0x0c, 0x37, 0xa8, 0x6a, 0x9b, 0x37, 0x2e, 0xa7, 0xaf, 0x37, 0x12, 0x00, 0x00, 0x00, 0x74, 0x66, 0x6c, 0x2e, 0x70, 0x73, 0x65, 0x75, 0x64, 0x6f, 0x5f, 0x71, 0x63, 0x6f, 0x6e, 0x73, 0x74, 0x32, 0x00, 0x00, 0x01, 0x00, 0x00, 0x00, 0x08, 0x00, 0x00, 0x00, 0x86, 0xff, 0xff, 0xff, 0x00, 0x00, 0x00, 0x01, 0x14, 0x00, 0x00, 0x00, 0x48, 0x00, 0x00, 0x00, 0x03, 0x00, 0x00, 0x00, 0x00, 0x00, 0x00, 0x09, 0x54, 0x00, 0x00, 0x00, 0xd4, 0xfe, 0xff, 0xff, 0x08, 0x00, 0x00, 0x00, 0x20, 0x00, 0x00, 0x00, 0x03, 0x00, 0x00, 0x00, 0x00, 0x00, 0x00, 0x00, 0x00, 0x00, 0x00, 0x00, 0x00, 0x00, 0x00, 0x00, 0x00, 0x00, 0x00, 0x00, 0x00, 0x00, 0x00, 0x00, 0x00, 0x00, 0x00, 0x00, 0x03, 0x00, 0x00, 0x00, 0x60, 0x6e, 0x4d, 0x3c, 0x88, 0xfb, 0x42, 0x3c, 0xdf, 0xe1, 0x2e, 0x3c, 0x12, 0x00, 0x00, 0x00, 0x74, 0x66, 0x6c, 0x2e, 0x70, 0x73, 0x65, 0x75, 0x64, 0x6f, 0x5f, 0x71, 0x63, 0x6f, 0x6e, 0x73, 0x74, 0x31, 0x00, 0x00, 0x02, 0x00, 0x00, 0x00, 0x03, 0x00, 0x00, 0x00, 0x08, 0x00, 0x00, 0x00, 0x00, 0x00, 0x16, 0x00, 0x1c, 0x00, 0x18, 0x00, 0x17, 0x00, 0x10, 0x00, 0x0c, 0x00, 0x08, 0x00, 0x00, 0x00, 0x00, 0x00, 0x00, 0x00, 0x07, 0x00, 0x16, 0x00, 0x00, 0x00, 0x00, 0x00, 0x00, 0x01, 0x14, 0x00, 0x00, 0x00, 0x48, 0x00, 0x00, 0x00, 0x02, 0x00, 0x00, 0x00, 0x00, 0x00, 0x00, 0x02, 0x54, 0x00, 0x00, 0x00, 0x64, 0xff, 0xff, 0xff, 0x08, 0x00, 0x00, 0x00, 0x20, 0x00, 0x00, 0x00, 0x03, 0x00, 0x00, 0x00, 0x00, 0x00, 0x00, 0x00, 0x00, 0x00, 0x00, 0x00, 0x00, 0x00, 0x00, 0x00, 0x00, 0x00, 0x00, 0x00, 0x00, 0x00, 0x00, 0x00, 0x00, 0x00, 0x00, 0x00, 0x03, 0x00, 0x00, 0x00, 0xed, 0x79, 0x07, 0x39, 0xf0, 0x95, 0x00, 0x39, 0x08, 0xa9, 0xe6, 0x38, 0x11, 0x00, 0x00, 0x00, 0x74, 0x66, 0x6c, 0x2e, 0x70, 0x73, 0x65, 0x75, 0x64, 0x6f, 0x5f, 0x71, 0x63, 0x6f, 0x6e, 0x73, 0x74, 0x00, 0x00, 0x00, 0x01, 0x00, 0x00, 0x00, 0x03, 0x00, 0x00, 0x00, 0x00, 0x00, 0x16, 0x00, 0x20, 0x00, 0x1c, 0x00, 0x1b, 0x00, 0x14, 0x00, 0x10, 0x00, 0x0c, 0x00, 0x00, 0x00, 0x00, 0x00, 0x08, 0x00, 0x07, 0x00, 0x16, 0x00, 0x00, 0x00, 0x00, 0x00, 0x00, 0x01, 0x18, 0x00, 0x00, 0x00, 0x2c, 0x00, 0x00, 0x00, 0x48, 0x00, 0x00, 0x00, 0x01, 0x00, 0x00, 0x00, 0x00, 0x00, 0x00, 0x09, 0x60, 0x00, 0x00, 0x00, 0x02, 0x00, 0x00, 0x00, 0xff, 0xff, 0xff, 0xff, 0x05, 0x00, 0x00, 0x00, 0x0c, 0x00, 0x0c, 0x00, 0x00, 0x00, 0x00, 0x00, 0x08, 0x00, 0x04, 0x00, 0x0c, 0x00, 0x00, 0x00, 0x08, 0x00, 0x00, 0x00, 0x10, 0x00, 0x00, 0x00, 0x01, 0x00, 0x00, 0x00, 0xef, 0xff, 0xff, 0xff, 0xff, 0xff, 0xff, 0xff, 0x01, 0x00, 0x00, 0x00, 0x5c, 0xa6, 0x9a, 0x3c, 0x1e, 0x00, 0x00, 0x00, 0x73, 0x65, 0x72, 0x76, 0x69, 0x6e, 0x67, 0x5f, 0x64, 0x65, 0x66, 0x61, 0x75, 0x6c, 0x74, 0x5f, 0x6b, 0x65, 0x72, 0x61, 0x73, 0x5f, 0x74, 0x65, 0x6e, 0x73, 0x6f, 0x72, 0x3a, 0x30, 0x00, 0x00, 0x02, 0x00, 0x00, 0x00, 0x01, 0x00, 0x00, 0x00, 0x05, 0x00, 0x00, 0x00, 0x02, 0x00, 0x00, 0x00, 0x24, 0x00, 0x00, 0x00, 0x04, 0x00, 0x00, 0x00, 0xf0, 0xff, 0xff, 0xff, 0x19, 0x00, 0x00, 0x00, 0x02, 0x00, 0x00, 0x00, 0x00, 0x00, 0x00, 0x19, 0x0c, 0x00, 0x10, 0x00, 0x0f, 0x00, 0x00, 0x00, 0x08, 0x00, 0x04, 0x00, 0x0c, 0x00, 0x00, 0x00, 0x09, 0x00, 0x00, 0x00, 0x04, 0x00, 0x00, 0x00, 0x00, 0x00, 0x00, 0x09
};

const unsigned int fire_detection_model_tflite_len = sizeof(fire_detection_model_tflite);

#endif // MODEL_DATA_H
